TRT-101601-EntropyCalibration2
images: 3b66eddc
getitem: 3e274df0
val_14: 3c010a14
silu: 3e1aa7ad
getitem_3: 3e45dfbc
val_26: 3c010a14
silu_1: 3db47f2a
getitem_6: 3e234e48
val_38: 3c00a953
silu_2: 3cf9aa4f
split_1_split_0: 3cf9aa4f
split_1_split_1: 3c97bc1d
getitem_13: 3cfa55e1
val_52: 3c01930c
silu_3: 3cf566f2
getitem_16: 3d236562
val_64: 3c0396bd
silu_4: 3d11bf92
add: 3d118117
getitem_19: 3d414329
val_76: 3bfcd476
silu_5: 3cd5f4e5
getitem_22: 3d71d8a9
val_88: 3c010a14
silu_6: 3d675693
add_1: 3da8553c
cat: 3d9d821d
getitem_27: 3d6b277b
val_101: 3bfb91e4
silu_7: 3c5133ec
getitem_30: 3cebef29
val_113: 3bfe3370
silu_8: 3c5c29a4
getitem_33: 3d5c4f8f
val_125: 3c03b71d
silu_9: 3d0199ac
split_4_split_0: 3d00df05
split_4_split_1: 3c7ea341
getitem_40: 3d245103
val_138: 3bf35f25
silu_10: 3cc1048a
getitem_43: 3cdb4403
val_150: 3bf7b29f
silu_11: 3c42b92c
add_2: 3cad67dd
getitem_46: 3d294c20
val_162: 3bfcae63
silu_12: 3c0d3fae
getitem_49: 3d04acda
val_174: 3c017d23
silu_13: 3cb2551a
add_3: 3ce1ff9a
getitem_52: 3d349cf8
val_186: 3c0597fc
silu_14: 3c402136
getitem_55: 3d4e92ac
val_198: 3c014dd9
silu_15: 3cd55bb4
add_4: 3d4b06f4
getitem_58: 3d45bb3e
val_210: 3bfe5489
silu_16: 3c80381a
getitem_61: 3d6d4c8b
val_222: 3c010a14
silu_17: 3d40659c
add_5: 3d8b0b4e
cat_1: 3d90bf2e
getitem_66: 3d3da8df
val_234: 3bff52ff
silu_18: 3c7818c1
getitem_69: 3d4439b3
val_246: 3c0c8630
silu_19: 3cd5967c
getitem_72: 3daeeb8f
val_258: 3c05fbf4
silu_20: 3d27f5af
split_7_split_0: 3d27800b
split_7_split_1: 3cd320cc
getitem_79: 3d6dedce
val_271: 3c0184dc
silu_21: 3c737a9f
getitem_82: 3d651693
val_283: 3c047600
silu_22: 3cb2d5d8
add_6: 3cd98934
getitem_85: 3d562d9f
val_295: 3c0320c4
silu_23: 3c314618
getitem_88: 3d8779c8
val_307: 3c01ea6c
silu_24: 3c723498
add_7: 3d235df1
getitem_91: 3d6552d1
val_319: 3c009b14
silu_25: 3c31802f
getitem_94: 3d6df9ea
val_331: 3c02fea0
silu_26: 3cd48bdb
add_8: 3d4f2f9b
getitem_97: 3d5ea351
val_343: 3bff6beb
silu_27: 3bd943d1
getitem_100: 3dae88cb
val_355: 3c00f1e3
silu_28: 3d259ce3
add_9: 3da4c336
cat_2: 3d270bc1
getitem_105: 3d76235c
val_367: 3c00d037
silu_29: 3cc3f3ca
getitem_108: 3d5cbfd7
val_379: 3c0100bd
silu_30: 3cb1fad2
getitem_111: 3d922356
val_391: 3c0536e1
silu_31: 3d03796e
split_10_split_0: 3d28ff48
split_10_split_1: 3cea982f
getitem_118: 3d979253
val_404: 3c00eb95
silu_32: 3cc36c43
getitem_121: 3d919b65
val_416: 3c038120
silu_33: 3cc24b32
add_10: 3cf650d5
getitem_124: 3d877bac
val_428: 3c00cb86
silu_34: 3cc1be30
getitem_127: 3d9668bf
val_440: 3c00d779
silu_35: 3d282c07
add_11: 3d83a80e
cat_3: 3d2a0777
getitem_132: 3d787ba1
val_452: 3c00e986
silu_36: 3cd2f989
getitem_135: 3d5bae6d
val_464: 3c00c324
silu_37: 3d419613
max_pool2d: 3d419613
max_pool2d_1: 3d419613
max_pool2d_2: 3d419613
cat_4: 3d8e7b7c
getitem_138: 3d652f28
val_479: 3c00b7d6
silu_38: 3c81284e
upsample_nearest2d: 3c81284e
cat_5: 3cb4c1de
getitem_141: 3d84c9cc
val_492: 3c00a489
silu_39: 3cea03c1
split_13_split_0: 3cb34afc
split_13_split_1: 3cea03c1
getitem_148: 3d8931ab
val_504: 3c0111a2
silu_40: 3ca5ec39
getitem_151: 3d7faff0
val_516: 3c00ee0a
silu_41: 3cb3f1ac
getitem_154: 3d92cc34
val_528: 3c00c6b1
silu_42: 3cb2c13e
getitem_157: 3d6ac1c6
val_540: 3c00faba
silu_43: 3cb5d81b
cat_6: 3cd47428
getitem_162: 3d6af507
val_552: 3c00c6a6
silu_44: 3c30e639
upsample_nearest2d_1: 3c30e639
cat_7: 3c4dc080
getitem_165: 3d45dce1
val_565: 3c00cc2b
silu_45: 3cd54c69
split_16_split_0: 3cb37495
split_16_split_1: 3cd54c69
getitem_172: 3d4e2ec1
val_577: 3c003ca1
silu_46: 3c921383
getitem_175: 3d6423fa
val_589: 3c00d378
silu_47: 3c51ca76
getitem_178: 3d8cbf52
val_601: 3c0145e4
silu_48: 3ca78e2f
getitem_181: 3dc81a05
val_613: 3c041766
silu_49: 3ce7f30a
cat_8: 3c9abeab
getitem_186: 3d9405e6
val_625: 3c030dd2
silu_50: 3c92a5d6
getitem_189: 3d86ad8c
val_637: 3c011216
silu_51: 3d03026a
cat_9: 3cec06cf
getitem_192: 3d95e51d
val_649: 3c011162
silu_52: 3c9af411
split_19_split_0: 3ce84313
split_19_split_1: 3c9a8657
getitem_199: 3da05cf6
val_661: 3c010f78
silu_53: 3cd5f491
getitem_202: 3d9e7695
val_673: 3c00d161
silu_54: 3cd6fb9b
getitem_205: 3d8df2a9
val_685: 3c010b96
silu_55: 3cc2982d
getitem_208: 3dcb48c4
val_697: 3c02140b
silu_56: 3d11cf68
cat_10: 3cc2481c
getitem_213: 3dd930f1
val_709: 3c021420
silu_57: 3cd529a8
getitem_216: 3d85f063
val_721: 3c021378
silu_58: 3ce9c600
cat_11: 3cd56a72
getitem_219: 3da03a52
val_733: 3c0111d2
silu_59: 3d013c38
split_22_split_0: 3ce6fd91
split_22_split_1: 3d00df28
getitem_226: 3d9529c6
val_745: 3c010da2
silu_60: 3d038c2a
getitem_229: 3d931504
val_757: 3c00dbab
silu_61: 3d02ac5c
getitem_232: 3d6914f0
val_769: 3c00e5b7
silu_62: 3d020e11
getitem_235: 3dac0929
val_781: 3c021323
silu_63: 3d43b1a6
cat_12: 3d013c38
getitem_240: 3dc5603e
val_793: 3c01118f
silu_64: 3d46aa2d
getitem_243: 3e0f8936
val_805: 3c010a14
silu_65: 3d438431
getitem_246: 3e996687
val_817: 3c010a14
silu_66: 3e97da06
conv2d_67: 3e5ebd64
view: 3e5ebd64
getitem_249: 3e3c19d5
val_834: 3c010a14
silu_67: 3d9ac0ee
getitem_252: 3eac478d
val_846: 3c010a14
silu_68: 3e9aae3b
conv2d_70: 3e0e70c6
view_1: 3e0e70c6
getitem_255: 3dde72e0
val_863: 3c0213ec
silu_69: 3d9552f5
getitem_258: 3e6429d7
val_875: 3c010a14
silu_70: 3e13fd9e
conv2d_73: 3e059322
view_2: 3e059322
cat_13: 3e5ebd64
getitem_261: 3dcf8a1b
val_892: 3c011221
silu_71: 3d2a87c1
getitem_264: 3e6b0b1a
val_904: 3c010a14
silu_72: 3dcb1c9f
conv2d_76: 3ee2da31
view_3: 3ee2da31
getitem_267: 3da264c3
val_921: 3c011192
silu_73: 3d243429
getitem_270: 3e4d69fa
val_933: 3c010a14
silu_74: 3dd23289
conv2d_79: 3e903d9e
view_4: 3e903d9e
getitem_273: 3dc6b28d
val_950: 3c0111da
silu_75: 3d27beec
getitem_276: 3e0f32ea
val_962: 3c010a14
silu_76: 3d9836df
conv2d_82: 3e194fdc
view_5: 3e194fdc
cat_14: 3edf4cb1
stack_output: 3f204a85
view_8: 3f204a85
view_11_output: 3e9f4871
view_14_output: 3e1d4449
cat_15: 3f204a85
transpose: 3f204a85
view_15: 3e5ebd64
transpose_2: 3e5ebd64
node_softmax_output: 3c0111fa
softmax: 3c0111fa
conv2d_83: 3da9497f
view_16: 3da9497f
output0: 40a35a78
unsqueeze: 3f204a85
split_24_split_0: 3da9497f
split_24_split_1: 3d95f57f
sub: 3f1ceb7e
add_18: 3f220161
add_19: 3fa05f94
scalar_tensor_default_output: 3c810a14
ONNXTRT_Broadcast_output: 3c810a14
div: 3f205f94
sub_1: 3e1dc1a4
cat_17: 3f235a78
transpose_1_output: 3e810a14
ONNXTRT_Broadcast_37_output: 3e810a14
mul: 409f6eaa
sigmoid: 3bee52dd
